#ifndef MODEL_H
#define MODEL_H

const unsigned char g_model[] = {
0x1c,0x00,0x00,0x00,0x54,0x46,0x4c,0x33,0x14,0x00,0x20,0x00,
0x1c,0x00,0x18,0x00,0x14,0x00,0x10,0x00,0x0c,0x00,0x00,0x00,
0x08,0x00,0x04,0x00,0x14,0x00,0x00,0x00,0x1c,0x00,0x00,0x00,
0x98,0x00,0x00,0x00,0xf0,0x00,0x00,0x00,0x1c,0x12,0x00,0x00,
0x2c,0x12,0x00,0x00,0xe0,0x17,0x00,0x00,0x03,0x00,0x00,0x00,
0x01,0x00,0x00,0x00,0x10,0x00,0x00,0x00,0x00,0x00,0x0a,0x00,
0x10,0x00,0x0c,0x00,0x08,0x00,0x04,0x00,0x0a,0x00,0x00,0x00,
0x0c,0x00,0x00,0x00,0x1c,0x00,0x00,0x00,0x3c,0x00,0x00,0x00,
0x0f,0x00,0x00,0x00,0x73,0x65,0x72,0x76,0x69,0x6e,0x67,0x5f,
0x64,0x65,0x66,0x61,0x75,0x6c,0x74,0x00,0x01,0x00,0x00,0x00,
0x04,0x00,0x00,0x00,0x90,0xff,0xff,0xff,0x0a,0x00,0x00,0x00,
0x04,0x00,0x00,0x00,0x08,0x00,0x00,0x00,0x6f,0x75,0x74,0x70,
0x75,0x74,0x5f,0x30,0x00,0x00,0x00,0x00,0x01,0x00,0x00,0x00,
0x04,0x00,0x00,0x00,0xca,0xed,0xff,0xff,0x04,0x00,0x00,0x00,
0x0c,0x00,0x00,0x00,0x6b,0x65,0x72,0x61,0x73,0x5f,0x74,0x65,
0x6e,0x73,0x6f,0x72,0x00,0x00,0x00,0x00,0x02,0x00,0x00,0x00,
0x34,0x00,0x00,0x00,0x04,0x00,0x00,0x00,0xdc,0xff,0xff,0xff,
0x0d,0x00,0x00,0x00,0x04,0x00,0x00,0x00,0x13,0x00,0x00,0x00,
0x43,0x4f,0x4e,0x56,0x45,0x52,0x53,0x49,0x4f,0x4e,0x5f,0x4d,
0x45,0x54,0x41,0x44,0x41,0x54,0x41,0x00,0x08,0x00,0x0c,0x00,
0x08,0x00,0x04,0x00,0x08,0x00,0x00,0x00,0x0c,0x00,0x00,0x00,
0x04,0x00,0x00,0x00,0x13,0x00,0x00,0x00,0x6d,0x69,0x6e,0x5f,
0x72,0x75,0x6e,0x74,0x69,0x6d,0x65,0x5f,0x76,0x65,0x72,0x73,
0x69,0x6f,0x6e,0x00,0x0e,0x00,0x00,0x00,0x28,0x11,0x00,0x00,
0x20,0x11,0x00,0x00,0x50,0x10,0x00,0x00,0x40,0x08,0x00,0x00,
0x24,0x08,0x00,0x00,0xd4,0x07,0x00,0x00,0x44,0x07,0x00,0x00,
0xb4,0x00,0x00,0x00,0xac,0x00,0x00,0x00,0xa4,0x00,0x00,0x00,
0x9c,0x00,0x00,0x00,0x94,0x00,0x00,0x00,0x74,0x00,0x00,0x00,
0x04,0x00,0x00,0x00,0x7e,0xee,0xff,0xff,0x04,0x00,0x00,0x00,
0x60,0x00,0x00,0x00,0x0c,0x00,0x00,0x00,0x08,0x00,0x0e,0x00,
0x08,0x00,0x04,0x00,0x08,0x00,0x00,0x00,0x10,0x00,0x00,0x00,
0x28,0x00,0x00,0x00,0x00,0x00,0x06,0x00,0x08,0x00,0x04,0x00,
0x06,0x00,0x00,0x00,0x04,0x00,0x00,0x00,0x01,0x00,0x00,0x00,
0xea,0x03,0x00,0x00,0x0c,0x00,0x18,0x00,0x14,0x00,0x10,0x00,
0x0c,0x00,0x04,0x00,0x0c,0x00,0x00,0x00,0xa8,0x6e,0x4b,0x9f,
0x47,0xa9,0xdc,0xfd,0x02,0x00,0x00,0x00,0x02,0x00,0x00,0x00,
0x04,0x00,0x00,0x00,0x06,0x00,0x00,0x00,0x32,0x2e,0x31,0x38,
0x2e,0x30,0x00,0x00,0xea,0xee,0xff,0xff,0x04,0x00,0x00,0x00,
0x10,0x00,0x00,0x00,0x31,0x2e,0x35,0x2e,0x30,0x00,0x00,0x00,
0x00,0x00,0x00,0x00,0x00,0x00,0x00,0x00,0x00,0xea,0xff,0xff,
0x04,0xea,0xff,0xff,0x08,0xea,0xff,0xff,0x0c,0xea,0xff,0xff,
0x16,0xef,0xff,0xff,0x04,0x00,0x00,0x00,0x80,0x06,0x00,0x00,
0x55,0xbe,0x89,0xbe,0x29,0x95,0x4c,0xbe,0xb1,0xc6,0x83,0x3e,
0xdd,0x35,0x0b,0xbe,0x20,0x12,0xb1,0x3e,0xcb,0x87,0xa1,0xbe,
0xcc,0x6a,0x95,0xbd,0x54,0x2a,0xbf,0xbe,0xb8,0xe1,0xe1,0xbd,
0x32,0x60,0x26,0x3e,0xf2,0x74,0xa1,0xbc,0x51,0xf5,0x03,0x3e,
0x6c,0x41,0x51,0xbe,0xd8,0x1a,0x61,0x3e,0xd4,0xc8,0xb9,0x3e,
0x65,0x88,0x45,0xbe,0x92,0x33,0x07,0xbe,0x17,0x56,0x92,0xbe,
0x17,0xdd,0x3f,0xbe,0x6e,0x93,0x22,0xbe,0x8c,0x02,0xda,0x3d,
0x2b,0x6b,0x44,0xbe,0xe4,0x7e,0x09,0x3e,0x64,0x98,0xb7,0x3d,
0x60,0x23,0x55,0xbd,0x04,0x2c,0x88,0x3e,0xa0,0x1c,0x5e,0x3e,
0x3a,0x03,0xb7,0xbe,0x78,0x4b,0x58,0x3e,0xd8,0xc0,0x12,0x3e,
0xc6,0xdc,0x9d,0x3e,0x28,0xab,0xd3,0xbd,0xca,0xbe,0xf6,0xbd,
0xc8,0x1d,0x45,0x3d,0x65,0x5a,0xb3,0xbe,0xfc,0x53,0xf6,0xbd,
0x18,0x44,0xd0,0xbd,0xfe,0x7c,0x04,0x3e,0xb6,0xfd,0x09,0x3e,
0x37,0x3e,0xf8,0xbc,0x5f,0xed,0x07,0xbe,0x21,0x12,0xc2,0x3d,
0x4d,0x15,0x2a,0xbe,0xba,0x6b,0x03,0xbe,0x82,0x6b,0x82,0xbe,
0x2b,0xfa,0xbc,0x3e,0x14,0x0f,0xb2,0x3e,0x63,0x91,0x6f,0xbe,
0xfc,0xe6,0x85,0xbe,0xa4,0x8d,0x92,0xbe,0xdb,0x33,0xaa,0x3d,
0x6e,0x8d,0x67,0x3e,0x24,0xd4,0x8c,0xbd,0x57,0x1e,0x80,0xbe,
0xe6,0xbc,0x8f,0x3e,0x4a,0xab,0x96,0x3e,0xb8,0x75,0x9c,0xbe,
0x2c,0xa1,0x42,0xbe,0xcb,0x0f,0xf0,0x3d,0xb4,0x15,0x87,0xbe,
0xeb,0xfc,0xa4,0xbd,0x50,0x3c,0x17,0x3e,0x9e,0x5c,0x0e,0x3e,
0xcd,0x5b,0xb8,0x3e,0x44,0x0e,0xfb,0x3d,0xca,0x94,0x84,0xbe,
0xa3,0x3e,0x86,0x3e,0x13,0x91,0x81,0xbe,0x78,0x94,0x51,0x3e,
0x42,0x09,0x7d,0xbe,0x54,0x69,0x6a,0xbe,0xbe,0x7d,0x6f,0x3d,
0x7d,0x6a,0xaf,0xbc,0x07,0x29,0xb1,0x3e,0x6d,0xbe,0x98,0x3e,
0xe8,0x69,0x05,0x3e,0x0d,0xc5,0xac,0xbe,0x86,0x13,0x1f,0xbe,
0xf0,0xfd,0x36,0x3e,0x88,0xe3,0x1c,0x3e,0x85,0xdf,0xae,0xbe,
0x5c,0x21,0x34,0x3e,0x62,0x0f,0xa3,0xbe,0x2c,0xb7,0xaa,0x3e,
0x14,0x8b,0x89,0x3d,0x80,0xaf,0x16,0xbb,0x20,0x84,0x0c,0x3d,
0xa4,0x4f,0xda,0xbd,0x6a,0x08,0x04,0x3e,0x52,0x0a,0x4e,0xbe,
0xc2,0x6f,0x70,0xbe,0x3b,0x94,0x0e,0xbe,0xaa,0x45,0x55,0xbe,
0x35,0xfd,0x5a,0x3e,0xcb,0x7c,0x9b,0x3e,0xdd,0x1e,0x2e,0x3d,
0xbb,0x4c,0x6e,0xbe,0x3b,0xa1,0x69,0x3e,0x48,0xd5,0x0e,0x3d,
0x85,0x17,0xa7,0x3e,0xa1,0xea,0xd2,0xbd,0x2a,0x9d,0xa7,0xbd,
0xb6,0x6c,0xf0,0x3b,0xe0,0x5a,0x9f,0x3e,0x61,0x8b,0x92,0xbe,
0x56,0x2a,0xc8,0x3d,0x9c,0x72,0x5c,0xbe,0xd9,0x74,0x8e,0x3d,
0x25,0x76,0x8f,0x3e,0xd8,0xac,0x80,0xbd,0x32,0xda,0xa4,0xbd,
0xf8,0x2f,0x90,0xbe,0x67,0xd9,0xe4,0xbc,0xeb,0xe7,0xe8,0xbd,
0x89,0xe1,0x4a,0xbe,0x0b,0x69,0x72,0xbd,0xe5,0x8f,0x08,0xbd,
0xbc,0x91,0x39,0xbc,0x57,0xfa,0xb4,0xbe,0x62,0xb0,0x69,0xbe,
0xa2,0xd7,0xb5,0x3d,0xf1,0x1c,0x00,0xbe,0x35,0xa4,0xce,0xbd,
0xfe,0x44,0x27,0x3e,0xf6,0x8e,0xa9,0x3e,0x42,0x0f,0x8d,0xbe,
0xcf,0x5e,0xe1,0x3d,0xec,0x91,0xdc,0x3b,0x22,0xd7,0xb7,0x3e,
0x8f,0x31,0x16,0x3e,0xc8,0xb2,0x95,0xbe,0xb9,0x1b,0x2a,0x3d,
0x8a,0x59,0x06,0x3c,0x04,0x5e,0x81,0xbe,0x35,0x59,0x02,0x3e,
0xb4,0x1e,0x98,0x3e,0xce,0x89,0xe9,0xbd,0x8d,0x73,0x49,0x3e,
0xd4,0xff,0x29,0x3a,0x1a,0xcc,0xf1,0x3d,0xe4,0x07,0x1e,0xbd,
0x72,0x34,0x85,0x3e,0x4c,0x4b,0xb7,0x3d,0x6f,0x8e,0xe2,0xbd,
0x82,0xc1,0x97,0xbd,0x6b,0xf7,0xd0,0xbd,0xfc,0x9f,0x76,0xbe,
0x02,0x6a,0x6c,0xbe,0x15,0xa1,0x94,0x3d,0x0b,0x9f,0xad,0xbe,
0xb4,0x7f,0xa9,0x3e,0x8c,0x2b,0x3c,0x3e,0x77,0x4e,0x87,0xbd,
0xc8,0x79,0xfc,0xbc,0x34,0x01,0xce,0xbc,0xe2,0x88,0x48,0x3e,
0x02,0x81,0x76,0xbe,0x7f,0x83,0xc2,0xbd,0x3d,0x08,0xa5,0x3b,
0x63,0x0b,0x81,0x3e,0x77,0x8a,0xb1,0x3e,0x6e,0x00,0xa5,0x3e,
0xee,0x1f,0x9a,0xbd,0x4e,0xc6,0x6a,0x3e,0x4b,0x0e,0x2b,0x3e,
0x66,0x00,0xa7,0x3d,0x74,0x38,0xa2,0x3d,0x2a,0x0c,0x18,0x3e,
0xd3,0xc4,0x22,0xbb,0xc2,0x29,0x9d,0x3e,0x50,0x7d,0xd2,0x3d,
0x58,0x1b,0x9f,0xbe,0xc0,0x77,0xe6,0xbc,0x0a,0xdc,0xa0,0x3e,
0x12,0x3c,0x99,0x3e,0x9c,0xc5,0x0a,0x3e,0x04,0x4e,0x1e,0x3e,
0x30,0x8e,0xfa,0x3d,0x40,0xfb,0xb6,0x3e,0x2e,0x80,0x04,0x3e,
0x58,0x52,0x3a,0x3e,0x14,0xff,0xa0,0xbd,0x5c,0xd5,0xb8,0x3e,
0x7c,0x0a,0x82,0xbd,0x04,0x25,0x83,0xbd,0x5c,0x34,0xe1,0x3d,
0xde,0x83,0xa6,0xbe,0xc0,0x73,0xe0,0x3b,0x40,0xe5,0x58,0x3c,
0x36,0x31,0x40,0xbe,0xdc,0xc1,0x2c,0x3e,0x60,0x6a,0x91,0x3d,
0x30,0x76,0x17,0x3d,0x2e,0xaf,0x76,0xbe,0xb0,0xfc,0x33,0x3d,
0xdc,0x5d,0x8b,0x3e,0x32,0x60,0xa3,0xbe,0x08,0x16,0xcd,0xbd,
0x30,0xe5,0xf0,0xbc,0x3c,0xb1,0xbb,0xbd,0xac,0xf1,0xa4,0x3d,
0x52,0xdc,0x06,0xbe,0x70,0x94,0x7d,0x3d,0x03,0x05,0xad,0xbe,
0xb5,0x68,0x3e,0xbe,0x00,0xa8,0x2f,0xbe,0xdc,0xb4,0xb0,0xbd,
0xe2,0x45,0x86,0x3e,0xf0,0x78,0xcb,0xbc,0xc4,0x78,0xa6,0x3e,
0xb5,0xf5,0x2c,0xbe,0x68,0xc9,0x84,0x3e,0x04,0x5f,0x84,0x3e,
0x00,0x06,0x07,0xbc,0x83,0xd4,0x79,0xbe,0x24,0xfe,0xb7,0x3e,
0x34,0xb5,0x09,0xbe,0x1c,0xfa,0xa4,0x3d,0xd0,0x41,0x19,0xbd,
0x02,0x1d,0x92,0x3e,0x52,0xae,0x90,0x3e,0x8a,0x65,0xae,0x3e,
0x75,0x44,0xaa,0xbe,0x86,0x56,0xb2,0xbe,0x48,0x87,0x22,0x3d,
0xd3,0x43,0x28,0xbe,0xd5,0xcc,0xb9,0xbe,0x90,0x19,0xd1,0xbd,
0xa4,0x3e,0x88,0xbe,0xa8,0x7b,0x2d,0x3e,0xc4,0xd4,0x46,0x3e,
0x70,0xb9,0xc5,0xbc,0x08,0x9a,0xa4,0xbd,0x60,0xe2,0xcc,0xbd,
0x28,0x9a,0x55,0x3d,0x38,0xf5,0x24,0x3e,0x30,0x8c,0xf8,0xbc,
0xc0,0xe3,0xc0,0xbd,0xde,0x08,0x92,0x3e,0xbe,0xf6,0x99,0x3e,
0x4e,0x04,0x92,0x3e,0xaa,0x56,0x53,0xbe,0xb8,0x6c,0x97,0xbe,
0x52,0xa9,0xb5,0x3e,0x28,0xd6,0x77,0x3d,0x6c,0x77,0xb3,0xbe,
0x28,0x70,0x48,0xbe,0xc9,0x9a,0xa6,0xbe,0x50,0xd4,0x84,0xbe,
0x60,0xe6,0x8d,0x3e,0x5a,0x00,0x91,0xbe,0x9a,0xbf,0x28,0xbe,
0xc5,0x19,0x03,0x3e,0x5c,0xb0,0xa3,0x3e,0xc0,0xce,0x94,0xbe,
0x15,0xd9,0x68,0xbe,0x7b,0x01,0x91,0xbd,0x4e,0x37,0x47,0x3e,
0xef,0x4b,0x83,0x3e,0x3e,0x37,0x65,0x3d,0xd4,0xf4,0xa5,0x3d,
0x39,0x64,0x50,0xbe,0xf8,0xaf,0x34,0x3e,0x2e,0xdd,0x95,0x3e,
0xff,0x39,0x9d,0xbe,0x73,0xa9,0x68,0xbe,0xbe,0x68,0x74,0xbe,
0xbc,0x2d,0x16,0x3e,0xfc,0x1d,0x89,0x3d,0xe0,0xc7,0xaa,0x3e,
0x28,0xf4,0x5e,0x3d,0x28,0x5e,0xbe,0xbd,0xfc,0xb8,0xdd,0x3d,
0x1c,0x97,0xa2,0xbe,0x4e,0x66,0x81,0xbe,0x1e,0x04,0x5d,0xbe,
0x26,0x3a,0x85,0xbd,0xab,0xa1,0x0d,0x3d,0x55,0x63,0x59,0x3e,
0x5a,0xbb,0x2d,0xbe,0x14,0x63,0x97,0x3e,0x16,0x49,0x9a,0x3e,
0x0d,0x45,0x7b,0x3e,0x08,0xab,0xb7,0x3e,0xb3,0x26,0xe0,0x3d,
0xce,0x99,0xbb,0x3e,0x50,0x65,0x05,0xbb,0x97,0xb1,0x75,0xbe,
0x44,0xea,0x99,0x3e,0x22,0x92,0x66,0xbe,0x31,0xad,0x45,0xbe,
0x0a,0x21,0x12,0xbe,0x08,0x7e,0x96,0xbe,0xde,0xc2,0x17,0xbd,
0xad,0x8e,0x45,0xbe,0x72,0xdf,0xd5,0x3d,0xb8,0x5e,0x40,0xbe,
0x28,0x92,0x45,0xbe,0xb2,0x4a,0x31,0xbe,0x63,0x1f,0x96,0xbe,
0xd7,0x8f,0x1e,0xbe,0x44,0x52,0x15,0xbe,0x3a,0x2a,0xfb,0x3d,
0x01,0xb4,0x85,0xbd,0x6d,0x83,0x8d,0xbe,0xb2,0xab,0x85,0x3e,
0x5d,0x8d,0x8d,0x3c,0xe3,0x91,0x57,0x3d,0xcd,0xc7,0xc7,0x3d,
0x3c,0x60,0x6c,0xbc,0x3f,0xd5,0x5b,0x3d,0x75,0xbd,0x46,0x3e,
0x90,0x60,0x2a,0x3e,0x2a,0x17,0x8d,0xbe,0x8e,0xad,0x82,0x3e,
0xd0,0xc1,0x9b,0x3e,0x14,0x8d,0x8f,0x3d,0xfe,0x7e,0xb8,0xbe,
0x94,0x81,0xbb,0xbd,0xe0,0x59,0x4c,0x3e,0x9c,0x70,0xc8,0x3d,
0xe8,0x67,0x42,0xbd,0x2b,0x4b,0xb2,0xbe,0xae,0x36,0xb4,0xbe,
0xd9,0xad,0x63,0xbe,0x45,0x39,0x65,0xbd,0x8a,0xc8,0xa5,0x3e,
0x47,0x86,0x95,0x3e,0x96,0x5c,0x9d,0x3d,0x03,0x56,0xd1,0xbd,
0xe7,0xed,0x61,0xbe,0xb9,0x44,0x9b,0xbe,0x31,0x45,0x6d,0x3e,
0xef,0x33,0x24,0xbe,0x75,0x7a,0x79,0x3d,0xa9,0x1e,0x5c,0xbe,
0x85,0xc7,0xe3,0x3d,0x45,0xe9,0x99,0xbe,0xb4,0x30,0x6b,0x3e,
0x10,0x0b,0x52,0xbe,0x10,0x78,0xad,0x3c,0x00,0xcd,0x75,0xbd,
0x34,0xe7,0x89,0x3e,0x2e,0xc9,0x81,0xbe,0xd8,0x9e,0xc8,0x3d,
0x10,0x32,0xf2,0x3d,0x38,0x75,0xa4,0x3e,0x40,0xc2,0xce,0x3c,
0x24,0x3c,0x59,0xbe,0x24,0x56,0x47,0x3e,0x3e,0xa4,0x04,0x3e,
0x6a,0xb3,0xb8,0xbe,0x6f,0xf7,0x37,0xbe,0xa7,0x7a,0x84,0xbe,
0x79,0xec,0x82,0xbe,0x74,0xce,0x01,0xbd,0x17,0x54,0x9b,0x3e,
0x8a,0x52,0x35,0x3e,0x38,0x8d,0xaf,0xbe,0x7c,0xc7,0x9a,0xbd,
0x7d,0x20,0x78,0x3d,0x28,0x71,0x08,0x3d,0xef,0x2c,0x53,0x3e,
0x25,0x56,0x1c,0xbe,0xf4,0x51,0x3e,0x3e,0xc6,0x22,0x8b,0x3e,
0xdc,0x1d,0x9e,0xbe,0x6d,0xdf,0x8a,0xbe,0x91,0x20,0xb4,0xbe,
0x88,0x7b,0x1e,0xbd,0xc0,0x5a,0xb8,0xbb,0x6a,0x24,0x94,0x3e,
0x18,0x45,0x39,0x3e,0x80,0x0a,0xc5,0x3c,0xd1,0x5b,0x75,0xbe,
0x50,0x98,0x28,0x3e,0x40,0x45,0x96,0x3e,0x76,0x14,0xa7,0x3e,
0xa4,0x50,0x92,0xbd,0x8a,0x5c,0x9e,0x3e,0xca,0xbb,0xa1,0x3e,
0xe8,0xe2,0x42,0xbe,0xc0,0x7c,0x92,0xbb,0xb8,0x43,0x63,0x3d,
0xea,0xe2,0xeb,0xbd,0x30,0xca,0x6c,0x3d,0xb0,0x58,0xe0,0xbd,
0x74,0x42,0x0e,0x3e,0x08,0x82,0x06,0xbd,0xf1,0x28,0x8d,0xbe,
0xb2,0xa1,0x8f,0x3e,0xb8,0xd9,0x0a,0xbd,0xce,0x1a,0x83,0xbe,
0xa0,0xfb,0xbb,0xbc,0x0c,0x20,0xb5,0xbd,0xd0,0x87,0xb2,0xbc,
0x90,0x4e,0x00,0xbd,0x34,0x69,0x1a,0xbe,0xcc,0xd8,0x64,0x3e,
0x38,0x9f,0x2a,0x3d,0x10,0x6c,0x70,0x3e,0xd0,0xcb,0xf7,0x3d,
0x0a,0xad,0x0e,0xbe,0x07,0xf0,0x73,0xbe,0x4c,0x0f,0xa4,0x3e,
0xbc,0xda,0x83,0x3d,0xc9,0xcf,0xa5,0x3e,0x8f,0x32,0x83,0x3e,
0x0f,0x6f,0xad,0xbd,0x2b,0x0e,0x69,0xbe,0x1d,0xb5,0x07,0x3c,
0xf1,0xb4,0x2a,0x3e,0x66,0x61,0x7a,0x3e,0x92,0x4e,0xe6,0x3d,
0x14,0x41,0x9e,0xbd,0x95,0x7d,0xc9,0xbd,0xa2,0xf5,0xff,0xff,
0x04,0x00,0x00,0x00,0x80,0x00,0x00,0x00,0x49,0x30,0x04,0x3c,
0x00,0x00,0x00,0x00,0x00,0x00,0x00,0x00,0x08,0x85,0x24,0x3c,
0x37,0xb8,0x64,0xbc,0xe2,0x7c,0xf5,0x3a,0x00,0x00,0x00,0x00,
0x73,0xf3,0x2f,0x3c,0xcf,0x56,0xab,0x39,0x52,0x1a,0x9b,0x3a,
0x3f,0x3a,0xd1,0xbb,0xa2,0xd5,0xda,0xbb,0xc2,0x06,0xc0,0xbb,
0x00,0x00,0x00,0x00,0x00,0x00,0x00,0x00,0x00,0x00,0x00,0x00,
0x00,0x00,0x00,0x00,0x00,0x00,0x00,0x00,0x00,0x00,0x00,0x00,
0xe3,0xa8,0x3c,0xba,0x00,0x00,0x00,0x00,0xb0,0x48,0x5f,0xbb,
0xa6,0x44,0x2b,0xb9,0xf4,0xd7,0x9e,0x3b,0x00,0x00,0x00,0x00,
0x72,0xff,0x3b,0x39,0x00,0x00,0x00,0x00,0xfb,0xc8,0xcb,0xb9,
0x00,0x00,0x00,0x00,0x00,0x00,0x00,0x00,0x00,0x00,0x00,0x00,
0xe4,0x2d,0xa4,0x3b,0x2e,0xf6,0xff,0xff,0x04,0x00,0x00,0x00,
0x40,0x00,0x00,0x00,0x00,0x00,0x00,0x00,0x00,0x00,0x00,0x00,
0x00,0x00,0x00,0x00,0x9d,0xb9,0x19,0x3b,0x00,0x00,0x00,0x00,
0xbd,0x06,0x87,0x3c,0x57,0xe7,0x2a,0xbb,0x37,0x76,0x58,0xbb,
0xd2,0x63,0x1a,0x3b,0xb5,0x01,0x51,0x3b,0x23,0x81,0x8a,0xba,
0x18,0x86,0x8e,0xbb,0x65,0x8e,0x7b,0x3b,0x00,0x00,0x00,0x00,
0xac,0xda,0x95,0x3b,0x9c,0x67,0x7d,0x3b,0x7a,0xf6,0xff,0xff,
0x04,0x00,0x00,0x00,0x0c,0x00,0x00,0x00,0xce,0x7c,0x2e,0xbb,
0x7b,0x75,0x8d,0xb8,0x57,0x1a,0x85,0x3b,0x92,0xf6,0xff,0xff,
0x04,0x00,0x00,0x00,0x00,0x08,0x00,0x00,0xc0,0xbe,0xb4,0x3c,
0xf0,0x5e,0xd4,0x3c,0xe4,0x98,0xf8,0xbd,0xe0,0x2f,0xaa,0xbc,
0x78,0xe1,0xd7,0x3d,0x20,0xf2,0x31,0xbd,0xf2,0x52,0x5b,0x3e,
0xcb,0x86,0x93,0xbe,0x54,0x13,0xa4,0xbd,0x68,0x95,0x3e,0xbd,
0xf8,0x60,0x31,0x3d,0x08,0x86,0x51,0xbd,0x78,0x41,0x50,0xbd,
0xcd,0x87,0x32,0xbe,0x5a,0x32,0x31,0x3e,0xf8,0x1a,0x6c,0xbd,
0x00,0x40,0x24,0xba,0x28,0xef,0xae,0x3d,0x67,0x5e,0x41,0xbe,
0x52,0xf4,0x10,0x3e,0x3f,0xa4,0xab,0x3e,0x88,0xd1,0x87,0xbe,
0x8a,0xd6,0x03,0xbe,0x4e,0x62,0xab,0xbe,0xda,0x2d,0x4b,0x3e,
0x00,0x77,0x0d,0xbb,0xf7,0xb9,0x64,0xbe,0xc0,0x6e,0x03,0x3e,
0xc0,0x29,0x9d,0xbb,0x27,0xf3,0xa9,0x3e,0x11,0x7f,0xa7,0x3e,
0x89,0xa2,0x11,0xbe,0x2e,0x5d,0x96,0xbe,0x98,0xde,0x05,0xbe,
0x41,0x99,0x48,0xbe,0x9d,0x20,0x98,0xbe,0xda,0x77,0x21,0x3e,
0x68,0x36,0x2d,0x3d,0xd7,0x66,0xaf,0x3e,0x20,0xc1,0x12,0x3d,
0x6a,0xad,0xad,0xbe,0x16,0xf2,0x19,0x3e,0x80,0x9c,0x33,0x3d,
0x22,0x95,0x79,0x3e,0xe8,0x34,0x86,0xbd,0x05,0x75,0xa7,0x3e,
0x0c,0x87,0x93,0xbe,0x10,0x20,0x87,0xbd,0x4e,0x5e,0x19,0x3e,
0x6e,0x0b,0x77,0xbe,0x24,0x64,0xbd,0x3d,0x68,0xa6,0xe5,0xbd,
0x48,0x20,0xa7,0xbe,0xbd,0xb3,0x24,0xbe,0x77,0x74,0xb2,0x3e,
0xe6,0xf7,0x29,0x3e,0x4d,0x7d,0x8b,0xbe,0x6c,0xec,0xd1,0x3d,
0x46,0x5e,0x66,0x3e,0x70,0x65,0xa6,0x3d,0x7b,0x80,0xad,0xbe,
0x66,0x25,0x04,0x3e,0xe9,0xb2,0x22,0xbe,0xbd,0xfe,0x92,0x3e,
0x10,0x44,0xc0,0x3d,0xbe,0x63,0x5f,0x3e,0xd6,0xf8,0x6a,0x3e,
0xc2,0x20,0x93,0xbe,0x5a,0xc0,0x54,0x3e,0xf2,0x03,0x54,0xbe,
0xd0,0x2b,0x64,0xbe,0x18,0x32,0x19,0x3d,0xc8,0x69,0x67,0xbe,
0x0f,0xfa,0x92,0xbe,0x03,0xb2,0xb3,0xbe,0xae,0x9f,0x96,0xbe,
0xa0,0xa1,0xba,0xbc,0x7b,0x28,0x89,0x3e,0x3a,0xff,0x39,0x3e,
0xf6,0x81,0x05,0x3e,0x97,0x2e,0xa0,0xbe,0x20,0xe2,0x58,0x3d,
0x80,0xe4,0x22,0xbc,0x1d,0x34,0xb1,0xbe,0x7a,0x1c,0x46,0x3e,
0xfa,0xd8,0x86,0xbe,0x75,0xb0,0x0d,0xbe,0xef,0x7b,0x86,0xbe,
0xd0,0x5f,0x1b,0x3d,0x62,0xd7,0x52,0x3e,0x46,0xc2,0x3a,0x3e,
0x13,0xc0,0x85,0x3e,0x50,0xd9,0x86,0x3d,0xd2,0x6b,0x71,0x3e,
0xd9,0x14,0x59,0xbe,0x48,0x08,0x9c,0xbd,0x67,0x4b,0x12,0x3e,
0xa6,0x2d,0x29,0xbe,0x70,0xff,0x15,0x3d,0x10,0x82,0x3d,0x3e,
0xc9,0xe8,0x2e,0x3e,0x6b,0xa1,0x59,0x3e,0x6c,0x83,0x9a,0x3d,
0x3f,0x98,0x61,0xbe,0x0c,0x03,0x21,0x3e,0xbf,0xb0,0x94,0x3e,
0xf0,0xc2,0x0b,0x3d,0x16,0xf3,0x5f,0x3e,0x36,0x62,0x45,0xbe,
0x30,0x94,0xea,0x3d,0xbe,0x2d,0xa6,0xbe,0xb0,0x5a,0x7f,0x3d,
0xad,0x1f,0x9a,0x3e,0x76,0x7c,0x65,0x3e,0x35,0x7c,0x9a,0x3e,
0xe3,0xf4,0xa0,0xbe,0x8e,0xe4,0xa1,0xbe,0x43,0x36,0xee,0xbd,
0xd0,0x09,0x00,0xbe,0x0e,0x27,0x1c,0x3e,0xd0,0x1b,0x33,0xbd,
0x5c,0x1f,0xa0,0xbe,0xb0,0x7c,0x66,0x3d,0x2b,0xd1,0xc3,0xbc,
0x8e,0x02,0x91,0xbe,0x3c,0x6b,0xe5,0x3d,0x56,0x24,0xdd,0xbd,
0x56,0x6f,0x63,0x3e,0xca,0xba,0x30,0xbe,0x1a,0xc6,0xae,0xbe,
0x46,0xd8,0x2f,0x3e,0xf2,0x8e,0x9a,0xbe,0x51,0x0f,0x6b,0xbe,
0x78,0x5e,0x86,0xbe,0x0c,0x1c,0xce,0x3d,0xd8,0x28,0x42,0x3d,
0xf2,0xab,0x09,0xbe,0xe1,0x8e,0x97,0x3e,0x77,0xe4,0xa5,0x3e,
0x33,0xe9,0x2b,0xbe,0x99,0x50,0xa2,0x3e,0xe7,0x99,0x9b,0x3e,
0xd8,0xf8,0xdc,0x3d,0xfa,0xba,0xa4,0xbe,0x66,0x88,0x5d,0x3e,
0x55,0x06,0x3f,0xbe,0x76,0x8e,0x02,0x3e,0xa2,0x44,0x36,0x3e,
0xf8,0x02,0x2b,0xbe,0x7b,0x45,0x85,0xbe,0x58,0xc6,0xda,0x3d,
0x5d,0x6d,0x38,0xbe,0xee,0xd8,0x78,0x3e,0xf1,0x13,0x91,0x3e,
0xcf,0xd2,0x84,0xbe,0x9e,0x18,0x17,0x3e,0x78,0x6b,0xbc,0xbd,
0xaf,0x6d,0x9b,0xbe,0xa3,0xd6,0xb4,0x3e,0x30,0x3b,0x23,0x3d,
0x2c,0x72,0xa3,0x3e,0x99,0x07,0xa1,0x3e,0x5e,0x8b,0x4d,0x3e,
0xde,0x77,0x6c,0x3e,0xdd,0x48,0x9c,0xbe,0xa4,0x38,0x83,0x3e,
0xef,0x3b,0x81,0xbe,0xcf,0x48,0xbb,0x3e,0xec,0x91,0x87,0xbe,
0x98,0xdd,0x8f,0xbe,0xaf,0xc2,0x07,0xbe,0xe7,0x00,0x7c,0xbe,
0x1e,0xc1,0x9c,0xbe,0x90,0xb0,0x05,0x3e,0xcd,0x05,0xae,0x3e,
0xd6,0xe9,0x77,0xbe,0xc0,0xa9,0x24,0xbe,0xde,0x0e,0x20,0x3e,
0x74,0xe0,0x9d,0x3d,0x5e,0x4a,0x96,0xbe,0xe4,0x82,0xc9,0x3d,
0x1d,0x4d,0x21,0xbc,0xe5,0x1e,0xa8,0x3e,0x91,0x90,0x58,0x3e,
0x60,0x49,0x22,0xbe,0x0c,0x3d,0x94,0x3d,0xd8,0xa4,0x05,0x3d,
0xfa,0xbc,0x6c,0x3e,0xfb,0x5e,0xa7,0x3e,0xe8,0x38,0xb4,0xbd,
0x17,0xc3,0x95,0x3e,0x6d,0xc8,0xea,0x3d,0x32,0x50,0x71,0x3e,
0x91,0xfa,0x9a,0xbe,0x9d,0x06,0x9f,0x3e,0x07,0x85,0xd8,0xbc,
0x2d,0xe5,0x78,0x3d,0x03,0x86,0x83,0x3e,0x92,0x66,0x57,0x3e,
0x0e,0x94,0x6d,0x3e,0x0e,0x4c,0x5e,0x3e,0xce,0x63,0xa0,0x3e,
0x6c,0xd8,0x1b,0x3e,0x44,0xb6,0xb5,0xbd,0x0f,0x3e,0xa2,0x3e,
0x28,0x30,0x3c,0xbe,0xe9,0x57,0x90,0x3e,0x19,0x4d,0xb0,0x3e,
0x9f,0xa0,0x98,0x3e,0x5d,0xa0,0xb0,0x3e,0xac,0x76,0xb6,0x3d,
0x3d,0x3b,0xac,0xbe,0x61,0x14,0x8c,0x3e,0x98,0x21,0x9d,0xbe,
0x92,0xfe,0x74,0x3d,0xd5,0x64,0x2b,0x3e,0xe4,0x1e,0xe9,0x3d,
0x73,0xea,0xc0,0x3c,0xe1,0x1c,0x9e,0x3e,0x89,0xae,0x0c,0x3e,
0x60,0x65,0xac,0x3c,0x83,0x77,0xab,0x3e,0xa8,0x7b,0x2e,0xbd,
0x6f,0x1d,0x1a,0xbe,0x6d,0x94,0x9b,0xbe,0x64,0x40,0xdf,0xbd,
0xfa,0x0e,0x61,0x3e,0xca,0xab,0x3f,0x3c,0x61,0x65,0x9d,0x3d,
0xa4,0x47,0xcc,0x3c,0x2f,0xb2,0x21,0xbe,0xe7,0x0d,0x23,0xbc,
0x9b,0xb8,0x88,0xbd,0x03,0x9f,0x9a,0xbe,0x2b,0xc7,0xe8,0x3d,
0x52,0x3d,0x90,0x3e,0x68,0x19,0x42,0x3d,0x73,0xb9,0x33,0xbe,
0xda,0x1c,0x26,0x3e,0x0b,0x3d,0x76,0xbe,0x53,0xd8,0x94,0x3e,
0x40,0x91,0x8f,0xbb,0x70,0xc7,0x94,0x3c,0x1a,0x60,0xa7,0x3e,
0xf7,0x9b,0xac,0x3e,0xc3,0x47,0x46,0xbc,0x24,0x60,0x03,0x3e,
0x9b,0x95,0x83,0xbe,0x4c,0x75,0x5a,0xbe,0x84,0x48,0x0e,0xbe,
0x2b,0x87,0x91,0xbe,0x3d,0x66,0x46,0x3e,0x15,0x52,0x15,0xbe,
0xa8,0x84,0x9a,0x3d,0x5e,0x4b,0x2a,0x3e,0x74,0x1e,0xb6,0x3d,
0x48,0xfe,0x8f,0xbe,0xea,0xfd,0x2a,0x3e,0x80,0xc1,0x55,0x3b,
0x0d,0x2d,0x0a,0xbe,0x62,0xe6,0x72,0xbe,0xa7,0x2e,0xa7,0xbd,
0xf7,0x17,0x00,0xbe,0x7d,0xed,0x38,0x3e,0x92,0x64,0x71,0xbc,
0xc5,0x45,0xa4,0x3e,0x12,0xf5,0xaa,0x3d,0xe2,0xac,0xa4,0x3b,
0x2f,0x3d,0x85,0xbe,0x66,0xf4,0x41,0xbe,0x34,0x55,0x31,0xbe,
0xfe,0xb8,0x64,0x3e,0x11,0xdc,0xa6,0x3e,0x80,0x66,0xc4,0xbc,
0xb2,0xfb,0x73,0x3e,0xb2,0x0d,0xa9,0x3e,0x3e,0xf9,0x60,0x3e,
0x29,0x93,0x4b,0x3e,0xf0,0x14,0x4e,0x3c,0x79,0x6e,0x83,0x3c,
0x9e,0x47,0x03,0x3e,0x3f,0x7b,0x19,0x3e,0x40,0x7f,0xcf,0x3b,
0xca,0x44,0xc0,0xbd,0xd8,0x74,0xa0,0x3d,0xde,0xeb,0x6b,0x3e,
0x84,0x27,0x86,0x3d,0x5b,0x03,0x98,0x3d,0xc1,0x94,0xcc,0x3d,
0x34,0x99,0xb9,0x3d,0xa7,0x3e,0x92,0x3e,0xa1,0x3d,0x79,0x3e,
0x27,0x4d,0x90,0x3e,0xc2,0xe8,0x69,0xbd,0x55,0x4a,0x94,0x3e,
0x31,0x94,0x9c,0xbe,0xcd,0x0e,0xaf,0xbe,0xf1,0x70,0x01,0x3e,
0x0c,0xdd,0x77,0x3c,0x36,0x0f,0xe1,0x3d,0x65,0xc3,0x51,0x3e,
0xa1,0x67,0xb4,0x3e,0x3e,0xff,0x7e,0x3e,0x7e,0xb7,0x17,0x3e,
0x68,0x83,0x5a,0xbd,0x46,0x08,0x3f,0x3e,0x21,0x1d,0x45,0xbe,
0x34,0x42,0x76,0x3e,0x06,0x4f,0x8c,0xbe,0xae,0xb8,0xc7,0x3d,
0x4d,0x97,0xf6,0xba,0x38,0x7d,0x0b,0xbe,0x70,0xf3,0xe3,0x3d,
0x54,0x7a,0x87,0x3d,0x1c,0xcd,0xdf,0x3d,0xd6,0x5b,0x81,0x3e,
0x4a,0x6d,0xb1,0xbe,0xd4,0x39,0x06,0x3e,0x24,0xb8,0x6b,0xbe,
0x54,0x83,0xab,0xbe,0xc0,0x93,0xa9,0x3d,0x64,0xa9,0x10,0xbe,
0x4f,0x38,0xb2,0x3e,0xdb,0xd4,0x5b,0x3e,0x10,0x25,0x27,0xbd,
0x84,0x63,0x87,0x3e,0x50,0xd6,0x7e,0xbe,0x4b,0x7e,0x89,0x3e,
0x26,0xd0,0x49,0xbc,0xd2,0x99,0x9a,0x3e,0x43,0x51,0xa1,0x3e,
0x20,0x10,0xad,0x3e,0xd1,0xcf,0x63,0x3d,0x70,0x06,0x84,0xbc,
0xae,0x0a,0x6e,0xbe,0xf0,0xd0,0x29,0x3d,0x80,0x72,0x91,0x3c,
0x0a,0x2c,0x0b,0xbe,0x90,0xe7,0x0b,0xbd,0xb8,0x20,0x84,0x3e,
0xf0,0xd3,0xf8,0x3d,0xe3,0x0a,0x43,0x3e,0xbf,0x3d,0x94,0xbe,
0x54,0xe9,0xa2,0x3e,0x6e,0x8b,0x3d,0x3e,0xb1,0xf0,0x4c,0xbe,
0xd4,0x22,0x9b,0x3d,0xb9,0x03,0x39,0xbe,0x45,0x01,0x9a,0x3e,
0x58,0x01,0x42,0xbe,0x61,0x7b,0x89,0x3e,0x45,0x6c,0xac,0xbe,
0x1e,0x40,0x37,0x3e,0x32,0x7d,0x39,0x3e,0x70,0x25,0xb0,0xbd,
0x08,0xba,0x8f,0xbe,0x02,0x88,0xe4,0x3d,0x9d,0x33,0xbe,0xbb,
0x10,0x9d,0x2b,0x3d,0x8e,0x14,0x93,0xbe,0x24,0xd0,0x94,0xbc,
0xe1,0x12,0xae,0xbd,0xa9,0x00,0x94,0x3e,0xfc,0x30,0x99,0xbe,
0x08,0x44,0x5a,0xbe,0x62,0xb9,0x7b,0xbe,0x3b,0x23,0xa3,0x3e,
0x1d,0x8f,0x8f,0x3e,0x20,0x97,0x48,0xbc,0x20,0x16,0x3a,0xbc,
0xd4,0x79,0xe3,0x3d,0xcb,0x69,0x7a,0xbe,0x7f,0x95,0xb3,0xbe,
0x3b,0x23,0x6e,0x3e,0x1d,0xc8,0xcb,0xbc,0x16,0x27,0xe3,0xbd,
0x52,0x9d,0x7e,0xbe,0x26,0x93,0x83,0x3e,0x09,0xed,0x9a,0x3e,
0xb2,0x80,0x5c,0x3e,0x20,0xa3,0x10,0x3d,0x11,0x3e,0xa3,0x3e,
0x58,0xf7,0xf6,0xbd,0xe2,0x2d,0xf2,0xbd,0xe2,0xad,0x3b,0xbe,
0x9b,0x2d,0xa0,0x3e,0xb1,0x16,0x8f,0x3e,0xf4,0x77,0x51,0xbe,
0x0f,0x6c,0xa7,0x3e,0x14,0xaa,0x0e,0xba,0x06,0xc4,0x74,0xbe,
0xff,0x65,0x41,0xbd,0x2b,0xdf,0x40,0x3d,0x4d,0xff,0xab,0x3d,
0x34,0x77,0x4b,0x3e,0x48,0x2d,0x49,0xbe,0xf3,0x84,0x62,0x3d,
0xe4,0x9b,0x99,0xbd,0x24,0x0b,0x93,0x3d,0x34,0x86,0x16,0xbe,
0x98,0x4f,0x4a,0xbd,0xc0,0x5b,0x25,0xbd,0x08,0xb8,0x8a,0xbe,
0x2d,0xa1,0x41,0x3e,0x88,0xc7,0xad,0x3d,0x96,0x96,0xa5,0xbe,
0x42,0x67,0x82,0xbe,0xd6,0x9f,0xa7,0x3e,0x98,0xa5,0xd2,0x3d,
0xb7,0x8d,0xb4,0x3e,0x7b,0xad,0x9c,0x3e,0xb7,0x7c,0x72,0x3e,
0x00,0xf1,0x0b,0xbb,0x54,0xde,0x95,0xbd,0xfa,0x6d,0x89,0xbe,
0x24,0x91,0x84,0xbe,0xe1,0xdf,0xa6,0xbe,0x41,0x4f,0x8c,0x3e,
0xe4,0xa7,0xcf,0x3d,0xd4,0x40,0x0c,0xbe,0x20,0xde,0x13,0x3e,
0xb4,0xe4,0x96,0xbe,0xec,0xce,0x99,0xbe,0x5b,0x59,0xa9,0x3e,
0xbe,0x99,0x8f,0xbe,0x52,0x0e,0x13,0xbe,0x4b,0xd4,0x62,0xbe,
0xe8,0xe5,0xe2,0xbd,0xa0,0x08,0xe7,0x3d,0x90,0x21,0xe4,0xbc,
0x80,0x71,0x41,0x3c,0x12,0x64,0x9f,0xbe,0x18,0x5c,0x08,0x3d,
0x1b,0x3d,0x92,0x3e,0xec,0x35,0x8b,0x3d,0x00,0x55,0xdf,0x3b,
0x83,0xe4,0x90,0xbe,0x7e,0xbe,0x9b,0xbe,0xe0,0xcb,0xab,0xbd,
0xb8,0x5c,0x8e,0x3d,0x09,0x56,0x9c,0x3e,0x14,0x0a,0x63,0xbe,
0xd2,0x18,0x6f,0xbe,0xa0,0x1a,0xd1,0xbc,0x88,0x6f,0x29,0x3d,
0x0b,0x37,0x98,0x3e,0x2d,0x0a,0x93,0xbe,0x65,0x41,0x80,0x3e,
0xcc,0x1c,0x63,0x3e,0x83,0x53,0x8e,0x3e,0xc6,0xe0,0x56,0xbe,
0x5c,0xb0,0xa1,0xbe,0x96,0x48,0x3b,0x3e,0xdd,0x4a,0x31,0xbe,
0x04,0x40,0x9c,0xbe,0xea,0x15,0xa2,0x3e,0x7c,0xf8,0xa6,0x3e,
0x15,0x83,0x8f,0x3e,0xc0,0xc2,0x28,0x3d,0xb2,0x3b,0xf4,0x3d,
0xe6,0x67,0xae,0xbe,0x87,0xa1,0xb1,0xbe,0x30,0xb3,0xcb,0x3c,
0x5d,0x4f,0x04,0xbe,0xee,0x89,0x80,0xbe,0xef,0x42,0x28,0xbe,
0xda,0x17,0x01,0x3e,0x3e,0x97,0xd9,0xbd,0xcc,0x02,0x04,0xbe,
0x6f,0xfb,0x36,0xbd,0xf5,0x4b,0x6c,0xbe,0xe4,0x92,0x27,0xbe,
0x36,0xa8,0x34,0x3e,0x48,0x6e,0x3d,0xbe,0xad,0x78,0xaa,0xbe,
0x92,0x8d,0xa5,0x3e,0x51,0xf0,0x33,0xbe,0x5a,0xfa,0x46,0x3e,
0x90,0x53,0xbf,0x3d,0x5f,0x50,0xb9,0x3d,0x29,0x28,0x95,0x3e,
0x79,0x0e,0xad,0x3e,0x08,0x06,0x2a,0xbd,0xea,0x21,0x31,0x3d,
0x12,0x29,0x6e,0x3e,0x5a,0xa0,0x87,0x3e,0xbc,0x89,0x94,0x3d,
0x42,0x92,0x37,0xbc,0xdb,0x13,0x88,0x3e,0x68,0x23,0x7a,0x3d,
0x36,0x7c,0x65,0xbd,0x30,0xb5,0x55,0xbe,0xab,0x0e,0x1d,0x3d,
0x4e,0x50,0x45,0x3e,0xef,0x2c,0x87,0xbe,0x5c,0x2f,0xaa,0x3d,
0x9c,0x75,0x09,0xbe,0x9a,0x6d,0x31,0xbe,0xc5,0x10,0xa0,0x3e,
0x5b,0x8e,0x9a,0x3e,0xc8,0xde,0xb5,0x3d,0x64,0x22,0x32,0xbe,
0x6d,0xfa,0x51,0xbd,0x8f,0xd3,0xd8,0x3d,0xc6,0xb9,0x45,0x3e,
0x8b,0xb8,0x68,0x3e,0x7f,0xe5,0x92,0xbe,0x7a,0x0d,0x3d,0x3c,
0x8c,0x60,0x6b,0xbe,0x0b,0xb6,0x8d,0x3e,0xb3,0xbe,0x80,0x3e,
0x90,0xce,0xbb,0x3d,0x9e,0xfe,0xff,0xff,0x04,0x00,0x00,0x00,
0xc0,0x00,0x00,0x00,0x61,0xdd,0xee,0xbe,0xcc,0xca,0x2f,0x3e,
0x8c,0x2e,0x28,0xbe,0x1d,0x86,0xa3,0xbe,0xbc,0xcf,0x51,0x3e,
0xec,0xe9,0x2e,0xbd,0x42,0x26,0xb0,0x3e,0xaa,0x06,0x4f,0x3e,
0x5c,0xc6,0xf9,0xbe,0xc6,0x74,0x0b,0xbe,0xcd,0x45,0xb1,0x3d,
0xe6,0xc2,0xa9,0x3e,0x36,0x0c,0x21,0xbe,0x9a,0xdd,0xc1,0x3e,
0x1f,0x6e,0x0a,0x3e,0x2b,0xeb,0x22,0xbe,0xb4,0x6a,0x38,0x3e,
0x98,0x1b,0xa4,0x3e,0x14,0xf0,0x0a,0xbf,0x6f,0x11,0x96,0x3e,
0x8e,0xc5,0xb2,0x3e,0xae,0x95,0xe5,0xbe,0x0b,0xf9,0x77,0xbe,
0xc8,0x07,0x71,0xbe,0x1e,0xeb,0x38,0x3e,0x15,0x53,0x03,0xbe,
0x3b,0xc0,0xe8,0x3e,0x8a,0xae,0x0b,0x3f,0x7a,0x2d,0x0a,0xbe,
0x21,0xda,0x96,0xbe,0x57,0xaf,0xcc,0xbc,0x41,0x5b,0x11,0xbe,
0x78,0x0c,0xa3,0x3e,0xd6,0x8b,0x90,0x3e,0x02,0xca,0x89,0xbe,
0xf1,0xbb,0x49,0x3e,0xd4,0x39,0xa9,0xbd,0x83,0x92,0x02,0xbf,
0xb8,0x95,0x37,0xbe,0x0e,0xf2,0x0a,0xbf,0xb0,0x93,0xb1,0x3d,
0xa3,0x2e,0x95,0xbd,0x06,0x77,0x7e,0x3d,0xd5,0xaf,0xbe,0xbe,
0xb6,0xcb,0x15,0x3e,0x04,0x7b,0xdb,0xbe,0x6d,0x75,0xcd,0x3e,
0xca,0x87,0x1b,0x3e,0x64,0xfa,0xff,0xff,0x68,0xfa,0xff,0xff,
0x0f,0x00,0x00,0x00,0x4d,0x4c,0x49,0x52,0x20,0x43,0x6f,0x6e,
0x76,0x65,0x72,0x74,0x65,0x64,0x2e,0x00,0x01,0x00,0x00,0x00,
0x14,0x00,0x00,0x00,0x00,0x00,0x0e,0x00,0x18,0x00,0x14,0x00,
0x10,0x00,0x0c,0x00,0x08,0x00,0x04,0x00,0x0e,0x00,0x00,0x00,
0x14,0x00,0x00,0x00,0x1c,0x00,0x00,0x00,0x24,0x01,0x00,0x00,
0x28,0x01,0x00,0x00,0x2c,0x01,0x00,0x00,0x04,0x00,0x00,0x00,
0x6d,0x61,0x69,0x6e,0x00,0x00,0x00,0x00,0x04,0x00,0x00,0x00,
0xcc,0x00,0x00,0x00,0x84,0x00,0x00,0x00,0x50,0x00,0x00,0x00,
0x14,0x00,0x00,0x00,0x00,0x00,0x0e,0x00,0x1a,0x00,0x14,0x00,
0x10,0x00,0x0c,0x00,0x0b,0x00,0x04,0x00,0x0e,0x00,0x00,0x00,
0x1c,0x00,0x00,0x00,0x00,0x00,0x00,0x09,0x1c,0x00,0x00,0x00,
0x20,0x00,0x00,0x00,0x01,0x00,0x00,0x00,0x00,0x00,0x06,0x00,
0x08,0x00,0x04,0x00,0x06,0x00,0x00,0x00,0x00,0x00,0x80,0x3f,
0x01,0x00,0x00,0x00,0x0a,0x00,0x00,0x00,0x01,0x00,0x00,0x00,
0x09,0x00,0x00,0x00,0x9a,0xff,0xff,0xff,0x10,0x00,0x00,0x00,
0x00,0x00,0x00,0x08,0x0c,0x00,0x00,0x00,0x10,0x00,0x00,0x00,
0x2c,0xfb,0xff,0xff,0x01,0x00,0x00,0x00,0x09,0x00,0x00,0x00,
0x03,0x00,0x00,0x00,0x08,0x00,0x00,0x00,0x01,0x00,0x00,0x00,
0x03,0x00,0x00,0x00,0xca,0xff,0xff,0xff,0x10,0x00,0x00,0x00,
0x00,0x00,0x00,0x08,0x10,0x00,0x00,0x00,0x14,0x00,0x00,0x00,
0xba,0xff,0xff,0xff,0x00,0x00,0x00,0x01,0x01,0x00,0x00,0x00,
0x08,0x00,0x00,0x00,0x03,0x00,0x00,0x00,0x07,0x00,0x00,0x00,
0x02,0x00,0x00,0x00,0x04,0x00,0x00,0x00,0x00,0x00,0x0e,0x00,
0x16,0x00,0x00,0x00,0x10,0x00,0x0c,0x00,0x0b,0x00,0x04,0x00,
0x0e,0x00,0x00,0x00,0x18,0x00,0x00,0x00,0x00,0x00,0x00,0x08,
0x18,0x00,0x00,0x00,0x1c,0x00,0x00,0x00,0x00,0x00,0x06,0x00,
0x08,0x00,0x07,0x00,0x06,0x00,0x00,0x00,0x00,0x00,0x00,0x01,
0x01,0x00,0x00,0x00,0x07,0x00,0x00,0x00,0x03,0x00,0x00,0x00,
0x00,0x00,0x00,0x00,0x06,0x00,0x00,0x00,0x05,0x00,0x00,0x00,
0x01,0x00,0x00,0x00,0x0a,0x00,0x00,0x00,0x01,0x00,0x00,0x00,
0x00,0x00,0x00,0x00,0x0b,0x00,0x00,0x00,0xfc,0x03,0x00,0x00,
0xa4,0x03,0x00,0x00,0x4c,0x03,0x00,0x00,0x10,0x03,0x00,0x00,
0xb4,0x02,0x00,0x00,0x5c,0x02,0x00,0x00,0x10,0x02,0x00,0x00,
0x7c,0x01,0x00,0x00,0xe0,0x00,0x00,0x00,0x60,0x00,0x00,0x00,
0x04,0x00,0x00,0x00,0x46,0xfc,0xff,0xff,0x00,0x00,0x00,0x01,
0x14,0x00,0x00,0x00,0x1c,0x00,0x00,0x00,0x1c,0x00,0x00,0x00,
0x0b,0x00,0x00,0x00,0x34,0x00,0x00,0x00,0x02,0x00,0x00,0x00,
0xff,0xff,0xff,0xff,0x03,0x00,0x00,0x00,0x30,0xfc,0xff,0xff,
0x1b,0x00,0x00,0x00,0x53,0x74,0x61,0x74,0x65,0x66,0x75,0x6c,
0x50,0x61,0x72,0x74,0x69,0x74,0x69,0x6f,0x6e,0x65,0x64,0x43,
0x61,0x6c,0x6c,0x5f,0x31,0x3a,0x30,0x00,0x02,0x00,0x00,0x00,
0x01,0x00,0x00,0x00,0x03,0x00,0x00,0x00,0x9e,0xfc,0xff,0xff,
0x00,0x00,0x00,0x01,0x14,0x00,0x00,0x00,0x1c,0x00,0x00,0x00,
0x1c,0x00,0x00,0x00,0x0a,0x00,0x00,0x00,0x58,0x00,0x00,0x00,
0x02,0x00,0x00,0x00,0xff,0xff,0xff,0xff,0x03,0x00,0x00,0x00,
0x88,0xfc,0xff,0xff,0x3c,0x00,0x00,0x00,0x73,0x65,0x71,0x75,
0x65,0x6e,0x74,0x69,0x61,0x6c,0x5f,0x31,0x2f,0x64,0x65,0x6e,
0x73,0x65,0x5f,0x32,0x5f,0x31,0x2f,0x4d,0x61,0x74,0x4d,0x75,
0x6c,0x3b,0x73,0x65,0x71,0x75,0x65,0x6e,0x74,0x69,0x61,0x6c,
0x5f,0x31,0x2f,0x64,0x65,0x6e,0x73,0x65,0x5f,0x32,0x5f,0x31,
0x2f,0x42,0x69,0x61,0x73,0x41,0x64,0x64,0x00,0x00,0x00,0x00,
0x02,0x00,0x00,0x00,0x01,0x00,0x00,0x00,0x03,0x00,0x00,0x00,
0x1a,0xfd,0xff,0xff,0x00,0x00,0x00,0x01,0x14,0x00,0x00,0x00,
0x1c,0x00,0x00,0x00,0x1c,0x00,0x00,0x00,0x09,0x00,0x00,0x00,
0x74,0x00,0x00,0x00,0x02,0x00,0x00,0x00,0xff,0xff,0xff,0xff,
0x10,0x00,0x00,0x00,0x04,0xfd,0xff,0xff,0x58,0x00,0x00,0x00,
0x73,0x65,0x71,0x75,0x65,0x6e,0x74,0x69,0x61,0x6c,0x5f,0x31,
0x2f,0x64,0x65,0x6e,0x73,0x65,0x5f,0x31,0x5f,0x32,0x2f,0x4d,
0x61,0x74,0x4d,0x75,0x6c,0x3b,0x73,0x65,0x71,0x75,0x65,0x6e,
0x74,0x69,0x61,0x6c,0x5f,0x31,0x2f,0x64,0x65,0x6e,0x73,0x65,
0x5f,0x31,0x5f,0x32,0x2f,0x52,0x65,0x6c,0x75,0x3b,0x73,0x65,
0x71,0x75,0x65,0x6e,0x74,0x69,0x61,0x6c,0x5f,0x31,0x2f,0x64,
0x65,0x6e,0x73,0x65,0x5f,0x31,0x5f,0x32,0x2f,0x42,0x69,0x61,
0x73,0x41,0x64,0x64,0x00,0x00,0x00,0x00,0x02,0x00,0x00,0x00,
0x01,0x00,0x00,0x00,0x10,0x00,0x00,0x00,0xb2,0xfd,0xff,0xff,
0x00,0x00,0x00,0x01,0x14,0x00,0x00,0x00,0x1c,0x00,0x00,0x00,
0x1c,0x00,0x00,0x00,0x08,0x00,0x00,0x00,0x6c,0x00,0x00,0x00,
0x02,0x00,0x00,0x00,0xff,0xff,0xff,0xff,0x20,0x00,0x00,0x00,
0x9c,0xfd,0xff,0xff,0x52,0x00,0x00,0x00,0x73,0x65,0x71,0x75,
0x65,0x6e,0x74,0x69,0x61,0x6c,0x5f,0x31,0x2f,0x64,0x65,0x6e,
0x73,0x65,0x5f,0x31,0x2f,0x4d,0x61,0x74,0x4d,0x75,0x6c,0x3b,
0x73,0x65,0x71,0x75,0x65,0x6e,0x74,0x69,0x61,0x6c,0x5f,0x31,
0x2f,0x64,0x65,0x6e,0x73,0x65,0x5f,0x31,0x2f,0x52,0x65,0x6c,
0x75,0x3b,0x73,0x65,0x71,0x75,0x65,0x6e,0x74,0x69,0x61,0x6c,
0x5f,0x31,0x2f,0x64,0x65,0x6e,0x73,0x65,0x5f,0x31,0x2f,0x42,
0x69,0x61,0x73,0x41,0x64,0x64,0x00,0x00,0x02,0x00,0x00,0x00,
0x01,0x00,0x00,0x00,0x20,0x00,0x00,0x00,0x96,0xfe,0xff,0xff,
0x00,0x00,0x00,0x01,0x10,0x00,0x00,0x00,0x10,0x00,0x00,0x00,
0x07,0x00,0x00,0x00,0x28,0x00,0x00,0x00,0x1c,0xfe,0xff,0xff,
0x1b,0x00,0x00,0x00,0x73,0x65,0x71,0x75,0x65,0x6e,0x74,0x69,
0x61,0x6c,0x5f,0x31,0x2f,0x64,0x65,0x6e,0x73,0x65,0x5f,0x31,
0x2f,0x4d,0x61,0x74,0x4d,0x75,0x6c,0x00,0x02,0x00,0x00,0x00,
0x20,0x00,0x00,0x00,0x0d,0x00,0x00,0x00,0xde,0xfe,0xff,0xff,
0x00,0x00,0x00,0x01,0x10,0x00,0x00,0x00,0x10,0x00,0x00,0x00,
0x06,0x00,0x00,0x00,0x38,0x00,0x00,0x00,0x64,0xfe,0xff,0xff,
0x2b,0x00,0x00,0x00,0x73,0x65,0x71,0x75,0x65,0x6e,0x74,0x69,
0x61,0x6c,0x5f,0x31,0x2f,0x64,0x65,0x6e,0x73,0x65,0x5f,0x31,
0x2f,0x42,0x69,0x61,0x73,0x41,0x64,0x64,0x2f,0x52,0x65,0x61,
0x64,0x56,0x61,0x72,0x69,0x61,0x62,0x6c,0x65,0x4f,0x70,0x00,
0x01,0x00,0x00,0x00,0x20,0x00,0x00,0x00,0x32,0xff,0xff,0xff,
0x00,0x00,0x00,0x01,0x10,0x00,0x00,0x00,0x10,0x00,0x00,0x00,
0x05,0x00,0x00,0x00,0x3c,0x00,0x00,0x00,0xb8,0xfe,0xff,0xff,
0x2d,0x00,0x00,0x00,0x73,0x65,0x71,0x75,0x65,0x6e,0x74,0x69,
0x61,0x6c,0x5f,0x31,0x2f,0x64,0x65,0x6e,0x73,0x65,0x5f,0x31,
0x5f,0x32,0x2f,0x42,0x69,0x61,0x73,0x41,0x64,0x64,0x2f,0x52,
0x65,0x61,0x64,0x56,0x61,0x72,0x69,0x61,0x62,0x6c,0x65,0x4f,
0x70,0x00,0x00,0x00,0x01,0x00,0x00,0x00,0x10,0x00,0x00,0x00,
0x8a,0xff,0xff,0xff,0x00,0x00,0x00,0x01,0x10,0x00,0x00,0x00,
0x10,0x00,0x00,0x00,0x04,0x00,0x00,0x00,0x1c,0x00,0x00,0x00,
0x10,0xff,0xff,0xff,0x0f,0x00,0x00,0x00,0x61,0x72,0x69,0x74,
0x68,0x2e,0x63,0x6f,0x6e,0x73,0x74,0x61,0x6e,0x74,0x32,0x00,
0x01,0x00,0x00,0x00,0x03,0x00,0x00,0x00,0xc2,0xff,0xff,0xff,
0x00,0x00,0x00,0x01,0x10,0x00,0x00,0x00,0x10,0x00,0x00,0x00,
0x03,0x00,0x00,0x00,0x1c,0x00,0x00,0x00,0x48,0xff,0xff,0xff,
0x0f,0x00,0x00,0x00,0x61,0x72,0x69,0x74,0x68,0x2e,0x63,0x6f,
0x6e,0x73,0x74,0x61,0x6e,0x74,0x31,0x00,0x02,0x00,0x00,0x00,
0x10,0x00,0x00,0x00,0x20,0x00,0x00,0x00,0x00,0x00,0x16,0x00,
0x18,0x00,0x14,0x00,0x00,0x00,0x10,0x00,0x0c,0x00,0x08,0x00,
0x00,0x00,0x00,0x00,0x00,0x00,0x07,0x00,0x16,0x00,0x00,0x00,
0x00,0x00,0x00,0x01,0x10,0x00,0x00,0x00,0x10,0x00,0x00,0x00,
0x02,0x00,0x00,0x00,0x1c,0x00,0x00,0x00,0x9c,0xff,0xff,0xff,
0x0e,0x00,0x00,0x00,0x61,0x72,0x69,0x74,0x68,0x2e,0x63,0x6f,
0x6e,0x73,0x74,0x61,0x6e,0x74,0x00,0x00,0x02,0x00,0x00,0x00,
0x03,0x00,0x00,0x00,0x10,0x00,0x00,0x00,0x00,0x00,0x16,0x00,
0x1c,0x00,0x18,0x00,0x00,0x00,0x14,0x00,0x10,0x00,0x0c,0x00,
0x00,0x00,0x00,0x00,0x08,0x00,0x07,0x00,0x16,0x00,0x00,0x00,
0x00,0x00,0x00,0x01,0x14,0x00,0x00,0x00,0x20,0x00,0x00,0x00,
0x20,0x00,0x00,0x00,0x01,0x00,0x00,0x00,0x3c,0x00,0x00,0x00,
0x02,0x00,0x00,0x00,0xff,0xff,0xff,0xff,0x0d,0x00,0x00,0x00,
0x04,0x00,0x04,0x00,0x04,0x00,0x00,0x00,0x1e,0x00,0x00,0x00,
0x73,0x65,0x72,0x76,0x69,0x6e,0x67,0x5f,0x64,0x65,0x66,0x61,
0x75,0x6c,0x74,0x5f,0x6b,0x65,0x72,0x61,0x73,0x5f,0x74,0x65,
0x6e,0x73,0x6f,0x72,0x3a,0x30,0x00,0x00,0x02,0x00,0x00,0x00,
0x01,0x00,0x00,0x00,0x0d,0x00,0x00,0x00,0x02,0x00,0x00,0x00,
0x20,0x00,0x00,0x00,0x04,0x00,0x00,0x00,0xf4,0xff,0xff,0xff,
0x19,0x00,0x00,0x00,0x00,0x00,0x00,0x19,0x0c,0x00,0x0c,0x00,
0x0b,0x00,0x00,0x00,0x00,0x00,0x04,0x00,0x0c,0x00,0x00,0x00,
0x09,0x00,0x00,0x00,0x00,0x00,0x00,0x09,
};
const unsigned int g_model_len = 6212;  // Replace with the actual model size

#endif  // MODEL_H